/* * Modèle TensorFlow Lite quantifié pour MedBox AI
 * Précision d'entraînement : 95.63%
 * Généré automatiquement pour l'ESP32
 */

#ifndef MODEL_MEDBOX_H
#define MODEL_MEDBOX_H

const unsigned char model_medbox_tflite[] alignas(8) = {

  0x1c, 0x00, 0x00, 0x00, 0x54, 0x46, 0x4c, 0x33, 0x14, 0x00, 0x20, 0x00, 
  0x1c, 0x00, 0x18, 0x00, 0x14, 0x00, 0x10, 0x00, 0x0c, 0x00, 0x00, 0x00, 
  0x08, 0x00, 0x04, 0x00, 0x14, 0x00, 0x00, 0x00, 0x1c, 0x00, 0x00, 0x00, 
  0x94, 0x00, 0x00, 0x00, 0xec, 0x00, 0x00, 0x00, 0xd8, 0x11, 0x00, 0x00, 
  0xe8, 0x11, 0x00, 0x00, 0x98, 0x17, 0x00, 0x00, 0x03, 0x00, 0x00, 0x00, 
  0x01, 0x00, 0x00, 0x00, 0x10, 0x00, 0x00, 0x00, 0x00, 0x00, 0x0a, 0x00, 
  0x10, 0x00, 0x0c, 0x00, 0x08, 0x00, 0x04, 0x00, 0x0a, 0x00, 0x00, 0x00, 
  0x0c, 0x00, 0x00, 0x00, 0x1c, 0x00, 0x00, 0x00, 0x3c, 0x00, 0x00, 0x00, 
  0x0f, 0x00, 0x00, 0x00, 0x73, 0x65, 0x72, 0x76, 0x69, 0x6e, 0x67, 0x5f, 
  0x64, 0x65, 0x66, 0x61, 0x75, 0x6c, 0x74, 0x00, 0x01, 0x00, 0x00, 0x00, 
  0x04, 0x00, 0x00, 0x00, 0x94, 0xff, 0xff, 0xff, 0x0a, 0x00, 0x00, 0x00, 
  0x04, 0x00, 0x00, 0x00, 0x08, 0x00, 0x00, 0x00, 0x6f, 0x75, 0x74, 0x70, 
  0x75, 0x74, 0x5f, 0x30, 0x00, 0x00, 0x00, 0x00, 0x01, 0x00, 0x00, 0x00, 
  0x04, 0x00, 0x00, 0x00, 0x0e, 0xee, 0xff, 0xff, 0x04, 0x00, 0x00, 0x00, 
  0x0b, 0x00, 0x00, 0x00, 0x69, 0x6e, 0x70, 0x75, 0x74, 0x5f, 0x6c, 0x61, 
  0x79, 0x65, 0x72, 0x00, 0x02, 0x00, 0x00, 0x00, 0x34, 0x00, 0x00, 0x00, 
  0x04, 0x00, 0x00, 0x00, 0xdc, 0xff, 0xff, 0xff, 0x0d, 0x00, 0x00, 0x00, 
  0x04, 0x00, 0x00, 0x00, 0x13, 0x00, 0x00, 0x00, 0x43, 0x4f, 0x4e, 0x56, 
  0x45, 0x52, 0x53, 0x49, 0x4f, 0x4e, 0x5f, 0x4d, 0x45, 0x54, 0x41, 0x44, 
  0x41, 0x54, 0x41, 0x00, 0x08, 0x00, 0x0c, 0x00, 0x08, 0x00, 0x04, 0x00, 
  0x08, 0x00, 0x00, 0x00, 0x0c, 0x00, 0x00, 0x00, 0x04, 0x00, 0x00, 0x00, 
  0x13, 0x00, 0x00, 0x00, 0x6d, 0x69, 0x6e, 0x5f, 0x72, 0x75, 0x6e, 0x74, 
  0x69, 0x6d, 0x65, 0x5f, 0x76, 0x65, 0x72, 0x73, 0x69, 0x6f, 0x6e, 0x00, 
  0x0e, 0x00, 0x00, 0x00, 0xe8, 0x10, 0x00, 0x00, 0xe0, 0x10, 0x00, 0x00, 
  0x90, 0x10, 0x00, 0x00, 0x34, 0x10, 0x00, 0x00, 0x64, 0x0b, 0x00, 0x00, 
  0x54, 0x03, 0x00, 0x00, 0x44, 0x01, 0x00, 0x00, 0xb4, 0x00, 0x00, 0x00, 
  0xac, 0x00, 0x00, 0x00, 0xa4, 0x00, 0x00, 0x00, 0x9c, 0x00, 0x00, 0x00, 
  0x94, 0x00, 0x00, 0x00, 0x74, 0x00, 0x00, 0x00, 0x04, 0x00, 0x00, 0x00, 
  0xbe, 0xee, 0xff, 0xff, 0x04, 0x00, 0x00, 0x00, 0x60, 0x00, 0x00, 0x00, 
  0x0c, 0x00, 0x00, 0x00, 0x08, 0x00, 0x0e, 0x00, 0x08, 0x00, 0x04, 0x00, 
  0x08, 0x00, 0x00, 0x00, 0x10, 0x00, 0x00, 0x00, 0x28, 0x00, 0x00, 0x00, 
  0x00, 0x00, 0x06, 0x00, 0x08, 0x00, 0x04, 0x00, 0x06, 0x00, 0x00, 0x00, 
  0x04, 0x00, 0x00, 0x00, 0x01, 0x00, 0x00, 0x00, 0xea, 0x03, 0x00, 0x00, 
  0x0c, 0x00, 0x18, 0x00, 0x14, 0x00, 0x10, 0x00, 0x0c, 0x00, 0x04, 0x00, 
  0x0c, 0x00, 0x00, 0x00, 0x34, 0x7e, 0x99, 0x29, 0x0e, 0xca, 0x1d, 0xb0, 
  0x02, 0x00, 0x00, 0x00, 0x02, 0x00, 0x00, 0x00, 0x04, 0x00, 0x00, 0x00, 
  0x06, 0x00, 0x00, 0x00, 0x32, 0x2e, 0x32, 0x30, 0x2e, 0x30, 0x00, 0x00, 
  0x2a, 0xef, 0xff, 0xff, 0x04, 0x00, 0x00, 0x00, 0x10, 0x00, 0x00, 0x00, 
  0x31, 0x2e, 0x35, 0x2e, 0x30, 0x00, 0x00, 0x00, 0x00, 0x00, 0x00, 0x00, 
  0x00, 0x00, 0x00, 0x00, 0x44, 0xea, 0xff, 0xff, 0x48, 0xea, 0xff, 0xff, 
  0x4c, 0xea, 0xff, 0xff, 0x50, 0xea, 0xff, 0xff, 0x56, 0xef, 0xff, 0xff, 
  0x04, 0x00, 0x00, 0x00, 0x80, 0x00, 0x00, 0x00, 0x7e, 0x37, 0xb3, 0x3d, 
  0x41, 0x0f, 0x8e, 0x3e, 0x86, 0x8d, 0xdd, 0xbe, 0x42, 0x44, 0x2c, 0x3f, 
  0x6c, 0xaa, 0xff, 0x3e, 0x58, 0x4f, 0x81, 0x3f, 0x4b, 0x40, 0xbf, 0xbe, 
  0x7b, 0xbb, 0xca, 0x3e, 0x1c, 0x9a, 0xaa, 0x3e, 0x49, 0xb1, 0xc0, 0x3e, 
  0xe5, 0x7b, 0xab, 0x3e, 0xb0, 0xa5, 0xa9, 0x3e, 0x27, 0x45, 0x40, 0x3f, 
  0x60, 0x46, 0x12, 0x3f, 0x11, 0x80, 0x3c, 0x3e, 0x38, 0x92, 0x2e, 0x3e, 
  0x29, 0x06, 0x4f, 0xbf, 0x44, 0x6e, 0x2e, 0x3f, 0xdc, 0xe3, 0x78, 0xbf, 
  0xcd, 0x50, 0x39, 0xbe, 0x5e, 0x32, 0xe1, 0x3e, 0xe3, 0x3d, 0x79, 0x3f, 
  0xdc, 0xb6, 0x9d, 0xbd, 0x20, 0x4f, 0xdb, 0x3e, 0x3f, 0x04, 0xa8, 0xbe, 
  0x6e, 0x3d, 0xc6, 0x3e, 0xc1, 0xf6, 0x8c, 0x3e, 0xc5, 0xd2, 0xfd, 0xbe, 
  0x7f, 0x73, 0x33, 0x3f, 0x82, 0x99, 0x49, 0x3f, 0x49, 0x3d, 0x53, 0x3f, 
  0xef, 0x83, 0x39, 0xbf, 0xe2, 0xef, 0xff, 0xff, 0x04, 0x00, 0x00, 0x00, 
  0x00, 0x02, 0x00, 0x00, 0x98, 0x16, 0x2c, 0xbd, 0x1c, 0x13, 0x7a, 0x3e, 
  0x8a, 0x1f, 0x9a, 0x3f, 0x1b, 0x6b, 0xe3, 0xbd, 0x31, 0x48, 0x99, 0x3c, 
  0xd9, 0xd8, 0x83, 0xbf, 0x5d, 0x66, 0x66, 0x3f, 0x51, 0xa5, 0xe4, 0x3d, 
  0x53, 0x7a, 0x90, 0x3c, 0x3b, 0x91, 0x34, 0x3f, 0x4a, 0xd5, 0xd6, 0xbf, 
  0x74, 0x78, 0x68, 0x3e, 0xa4, 0x75, 0x96, 0x3e, 0x46, 0xd4, 0x5d, 0xbf, 
  0x9e, 0xbd, 0xdf, 0xbe, 0x46, 0x79, 0x2a, 0x3f, 0xf2, 0x7e, 0x72, 0xbf, 
  0xbf, 0xa1, 0x2f, 0xbf, 0x8d, 0x3a, 0x7d, 0x3d, 0x52, 0x8a, 0x63, 0xbe, 
  0xae, 0x24, 0xbe, 0x3c, 0x92, 0x37, 0x1d, 0x3d, 0x01, 0x8b, 0x9c, 0xbd, 
  0x96, 0xc8, 0xb7, 0x3f, 0x05, 0xc4, 0x84, 0x3f, 0xc5, 0x40, 0x3e, 0xbc, 
  0xa4, 0x67, 0x43, 0xbd, 0x30, 0x43, 0x5b, 0x3f, 0xb7, 0x45, 0x25, 0xbe, 
  0x58, 0x24, 0x6d, 0xbe, 0xe5, 0x59, 0xdb, 0xbf, 0x7b, 0xe8, 0x27, 0xbf, 
  0x8d, 0x7c, 0xa6, 0xbe, 0x3f, 0x22, 0x6d, 0x3f, 0x7c, 0x07, 0x0e, 0x3e, 
  0x27, 0x93, 0x9f, 0x3f, 0x51, 0x88, 0x3d, 0x3c, 0x1d, 0xb7, 0x55, 0xbe, 
  0xfe, 0x64, 0xf4, 0xbf, 0x77, 0x00, 0x83, 0x3e, 0x5f, 0x8c, 0xb2, 0x3e, 
  0x24, 0x67, 0x62, 0x3f, 0x06, 0x49, 0x88, 0x3d, 0xcc, 0x54, 0xdc, 0xbf, 
  0xaa, 0xc8, 0x7f, 0xbb, 0x1f, 0x7c, 0x08, 0xbf, 0x48, 0xb5, 0xe9, 0xbf, 
  0x19, 0xa9, 0x65, 0x3e, 0xbb, 0x02, 0x3e, 0xbd, 0x34, 0x9f, 0x67, 0x3e, 
  0x08, 0x3c, 0xb9, 0x3e, 0xf7, 0x27, 0x74, 0x3f, 0x46, 0xa8, 0x6d, 0xbc, 
  0x49, 0x15, 0x46, 0x3f, 0x87, 0xd5, 0x35, 0x3d, 0x17, 0x88, 0xd7, 0xbf, 
  0x22, 0x9a, 0xc5, 0xbd, 0x1a, 0xda, 0x83, 0xbf, 0x95, 0xc5, 0x22, 0x3f, 
  0x9a, 0x5a, 0xee, 0xbf, 0xba, 0x0b, 0x1d, 0xbe, 0xd2, 0x3e, 0x5a, 0x3f, 
  0xdd, 0x5d, 0x82, 0x3f, 0x8d, 0x1d, 0xfb, 0x3e, 0xdc, 0xb5, 0x33, 0xba, 
  0xc2, 0x0a, 0x2d, 0xbf, 0x00, 0x27, 0x12, 0xbe, 0x58, 0x67, 0x91, 0xbf, 
  0xa8, 0xc0, 0xe0, 0x3e, 0xf6, 0xde, 0x0b, 0x3f, 0x1a, 0xb9, 0xd1, 0x3d, 
  0xda, 0xf8, 0xb2, 0x3f, 0x60, 0xd8, 0x98, 0xbf, 0x2c, 0xec, 0xa5, 0x3d, 
  0xe5, 0xf7, 0xe2, 0xbd, 0x63, 0xf9, 0x61, 0xbd, 0xdd, 0xf3, 0xd0, 0xbd, 
  0xb4, 0xa6, 0xa6, 0xbf, 0xd7, 0x0c, 0x06, 0x3f, 0x28, 0xe1, 0x48, 0x3f, 
  0x92, 0x29, 0xe9, 0xbd, 0x15, 0xd1, 0xa4, 0xbf, 0x7e, 0xa8, 0x1b, 0xbe, 
  0x0c, 0x51, 0xcc, 0xbf, 0xbf, 0xa4, 0x6b, 0x3e, 0x70, 0x6d, 0x90, 0xbf, 
  0x34, 0xdb, 0x4d, 0xbe, 0x89, 0xb1, 0xa2, 0x3e, 0x38, 0x1d, 0x26, 0x3f, 
  0xfe, 0x1f, 0xe5, 0xbe, 0x8a, 0x8e, 0x3e, 0xbe, 0x90, 0xb0, 0x3d, 0x3f, 
  0x97, 0x5c, 0xfa, 0x3e, 0x28, 0xdf, 0xa6, 0xbf, 0x1f, 0x10, 0xce, 0x3e, 
  0x43, 0xf0, 0x3b, 0x3e, 0x1e, 0x5d, 0x99, 0xbd, 0xca, 0x60, 0x6a, 0xbf, 
  0xdc, 0x6a, 0x6e, 0x3f, 0x1b, 0x03, 0xbf, 0xbf, 0x48, 0x21, 0xa5, 0xbd, 
  0xb2, 0xc6, 0x68, 0x3f, 0x36, 0x84, 0x7c, 0x3f, 0xc6, 0x48, 0x3d, 0xbf, 
  0x1e, 0x3f, 0x62, 0xbd, 0x1a, 0x50, 0x0f, 0x3e, 0xc0, 0xfc, 0x8c, 0xbe, 
  0x73, 0xea, 0xf5, 0x3f, 0xa4, 0xda, 0x6d, 0x3d, 0x33, 0xd6, 0x93, 0x3f, 
  0x74, 0xac, 0x12, 0xbf, 0xc5, 0xc7, 0x38, 0xbe, 0xe2, 0x20, 0x02, 0xbc, 
  0x99, 0x48, 0x46, 0x3f, 0x64, 0x79, 0xae, 0xbe, 0x6a, 0x28, 0xbc, 0xbf, 
  0xab, 0x39, 0x1d, 0x3f, 0xa1, 0xb6, 0x0b, 0x3f, 0x19, 0xe3, 0xa9, 0x3e, 
  0x1a, 0xc9, 0x5d, 0xbe, 0xd7, 0x6d, 0xe4, 0xbe, 0xd0, 0x3c, 0xea, 0x3e, 
  0x75, 0xe9, 0x8d, 0x3e, 0x93, 0x6d, 0x4d, 0xbe, 0xfa, 0x45, 0xaf, 0xbd, 
  0x23, 0x75, 0x99, 0x3f, 0xc8, 0x01, 0x52, 0x3e, 0x7c, 0xf7, 0x9e, 0x3f, 
  0xee, 0xf1, 0xff, 0xff, 0x04, 0x00, 0x00, 0x00, 0x00, 0x08, 0x00, 0x00, 
  0xcb, 0xb3, 0x10, 0xbf, 0xff, 0xc9, 0x99, 0xbe, 0xbc, 0x7a, 0x3f, 0x3d, 
  0x70, 0x0e, 0x3f, 0x3f, 0x36, 0x20, 0x1a, 0x3f, 0xd0, 0xa7, 0x8c, 0x3f, 
  0xa8, 0x75, 0x88, 0xbe, 0x12, 0xbd, 0xbb, 0x3e, 0x94, 0xc1, 0x91, 0xbd, 
  0x66, 0xbc, 0xbb, 0x3e, 0xed, 0x8f, 0xd0, 0xbd, 0x67, 0x01, 0x33, 0x3e, 
  0x98, 0x56, 0xd5, 0x3e, 0x5d, 0xfa, 0x83, 0x3d, 0x3c, 0x45, 0xf0, 0xbd, 
  0x28, 0x98, 0xb2, 0x3d, 0x70, 0x3c, 0xa3, 0xbf, 0x48, 0xfe, 0xf1, 0x3e, 
  0x37, 0x11, 0x62, 0xbf, 0xc1, 0xfc, 0x67, 0xbe, 0x9a, 0x1c, 0x8d, 0x3d, 
  0x75, 0x4e, 0xca, 0x3e, 0xfc, 0xb6, 0x8d, 0x3e, 0x9d, 0xc4, 0x74, 0x3d, 
  0x5c, 0xb0, 0x0d, 0xbf, 0xb4, 0xf8, 0xce, 0xbe, 0x08, 0x97, 0x0e, 0x3f, 
  0x6c, 0x61, 0x19, 0xbe, 0x8a, 0x19, 0xca, 0x3e, 0xdf, 0x2d, 0xd7, 0x3e, 
  0xb5, 0x77, 0x3c, 0x3f, 0x69, 0x31, 0x25, 0xbf, 0x77, 0x32, 0x30, 0xbe, 
  0xcb, 0x92, 0x00, 0x3f, 0xc0, 0xd1, 0x92, 0x3d, 0x6b, 0x3f, 0x30, 0x3f, 
  0xa4, 0x67, 0x7f, 0x3e, 0xf0, 0x63, 0xf6, 0x3e, 0xed, 0x5b, 0xc6, 0x3e, 
  0x3c, 0xaf, 0x18, 0xbe, 0x56, 0x79, 0x43, 0x3f, 0x54, 0x64, 0xd1, 0x3e, 
  0x07, 0x7c, 0xb5, 0xbf, 0x71, 0xf1, 0x5d, 0x3f, 0x7f, 0x3f, 0xa4, 0x3e, 
  0xa1, 0x55, 0xd8, 0xbf, 0xbb, 0x43, 0x31, 0x3e, 0x2c, 0x3e, 0xb3, 0x3e, 
  0xf8, 0x46, 0x2d, 0xbd, 0x68, 0xc3, 0xda, 0x3e, 0x62, 0x92, 0xad, 0x3e, 
  0x71, 0x5c, 0x4f, 0x3f, 0x86, 0x46, 0x3d, 0x3e, 0xd0, 0xd9, 0x4e, 0x3f, 
  0x67, 0xa4, 0x11, 0x3f, 0x81, 0x2a, 0xcb, 0x3e, 0x7d, 0x49, 0x47, 0x3d, 
  0xe5, 0x5b, 0xa0, 0xbe, 0x10, 0xb2, 0x52, 0x3f, 0x0d, 0xc0, 0x9f, 0xbe, 
  0x49, 0xff, 0xfa, 0xbf, 0xf2, 0xaf, 0x93, 0xbe, 0xe5, 0xc2, 0xa5, 0xbd, 
  0xe5, 0xb7, 0xb4, 0x3e, 0x4f, 0x72, 0xf8, 0x3e, 0xd2, 0xc5, 0x14, 0x3f, 
  0x14, 0xfa, 0x01, 0x3f, 0x3e, 0x2c, 0xf4, 0x3e, 0x96, 0x84, 0xab, 0x3d, 
  0x96, 0x05, 0xea, 0x3d, 0xf2, 0x7a, 0xad, 0xbe, 0xa5, 0xfb, 0x90, 0x3e, 
  0x1b, 0x50, 0xfe, 0xbe, 0xd3, 0x51, 0xa5, 0x3d, 0x15, 0x29, 0xf1, 0x3e, 
  0x84, 0x2f, 0x7e, 0x3e, 0x9e, 0xd4, 0xab, 0x3e, 0x9b, 0xb6, 0x3e, 0x3f, 
  0x2b, 0xa4, 0x98, 0x3f, 0x26, 0xf8, 0x24, 0xbd, 0xd0, 0xe8, 0x91, 0x3f, 
  0xaa, 0xfd, 0x8e, 0xbe, 0x38, 0xb8, 0xd5, 0xbe, 0xdb, 0xcb, 0x3e, 0x3f, 
  0xb5, 0x99, 0x9c, 0x3f, 0x0a, 0xe2, 0x30, 0x3f, 0x89, 0x78, 0x29, 0x3e, 
  0x20, 0x05, 0x2b, 0x3f, 0x1f, 0x2e, 0xbd, 0x3f, 0x79, 0xc5, 0x05, 0x3e, 
  0x39, 0xc8, 0x4c, 0xbf, 0x20, 0xaa, 0x2a, 0x3f, 0xae, 0xfd, 0xfc, 0x3e, 
  0xc4, 0x99, 0x0d, 0xbd, 0x83, 0x0f, 0x4f, 0x3e, 0x68, 0x58, 0xd9, 0xbf, 
  0x68, 0x0f, 0x21, 0xbf, 0x98, 0x61, 0xd5, 0x3d, 0xc1, 0x95, 0x2e, 0x3e, 
  0x39, 0xb4, 0x86, 0xbb, 0xb1, 0xc1, 0x39, 0x3e, 0x2a, 0x7e, 0xb5, 0xbd, 
  0xbf, 0x62, 0x35, 0x3d, 0x66, 0x15, 0x9a, 0x3f, 0x77, 0xa2, 0x13, 0x3f, 
  0xc7, 0x54, 0x76, 0x3f, 0x0c, 0xa1, 0xc3, 0x3f, 0xbc, 0x4d, 0x8a, 0x3f, 
  0x7f, 0xf4, 0x7a, 0xbe, 0xa4, 0x28, 0xcd, 0x3f, 0xca, 0x70, 0x1d, 0x3f, 
  0xd2, 0x94, 0x96, 0xbe, 0xab, 0x7a, 0x09, 0x3f, 0x0f, 0xd1, 0x31, 0x3e, 
  0x71, 0x01, 0xcb, 0xbe, 0x2e, 0x32, 0x25, 0xbf, 0xb0, 0x8e, 0x2f, 0x3f, 
  0xc8, 0xe2, 0xcc, 0x3e, 0xe0, 0x1d, 0x96, 0xbd, 0x0f, 0xda, 0x40, 0x3e, 
  0xa6, 0x9c, 0x22, 0x3f, 0x44, 0x58, 0x04, 0x3e, 0x3e, 0xe0, 0x76, 0xbd, 
  0xea, 0xc6, 0xd2, 0x3e, 0x08, 0x33, 0xc1, 0x3f, 0x5c, 0x68, 0xd3, 0x3d, 
  0xe1, 0x54, 0xd9, 0x3d, 0x11, 0xc7, 0xe4, 0xbd, 0x75, 0x16, 0xdf, 0x3d, 
  0xd5, 0xe5, 0x93, 0x3e, 0xe6, 0x9c, 0x96, 0xbe, 0xbd, 0x17, 0x56, 0x3f, 
  0x0a, 0x2a, 0x18, 0xbd, 0xbf, 0x12, 0x81, 0xbe, 0x65, 0x8d, 0xc3, 0x3f, 
  0x29, 0xef, 0x14, 0xbe, 0xc4, 0x25, 0xba, 0x3e, 0x35, 0xa8, 0xcc, 0xbe, 
  0x14, 0x30, 0x37, 0x3f, 0x31, 0x76, 0xa3, 0xbe, 0x2f, 0x7d, 0xe4, 0xbd, 
  0xc8, 0xdd, 0x44, 0xbf, 0xee, 0x78, 0x34, 0xbd, 0x69, 0xa8, 0x32, 0x3e, 
  0xd7, 0x14, 0x2f, 0xbe, 0x79, 0xeb, 0x1e, 0x3f, 0xae, 0x54, 0x99, 0xbf, 
  0xe0, 0x08, 0xb2, 0x3e, 0xbe, 0xe6, 0x00, 0xbf, 0xe6, 0xa9, 0x2e, 0x3f, 
  0x27, 0xa4, 0x74, 0x3f, 0xe5, 0xd9, 0x19, 0x3f, 0xb2, 0x11, 0x07, 0xbf, 
  0x40, 0x95, 0x7a, 0x3e, 0x47, 0x88, 0xef, 0xbc, 0x3e, 0x8d, 0x7b, 0xbe, 
  0xbb, 0xf8, 0x0d, 0xbf, 0xfe, 0x8c, 0x71, 0x3f, 0x26, 0x0f, 0x48, 0x3d, 
  0xe9, 0x42, 0x13, 0x3e, 0x87, 0xfc, 0xe5, 0xbe, 0x95, 0x62, 0x26, 0x3e, 
  0x60, 0xf0, 0x23, 0xbf, 0x08, 0xec, 0x84, 0x3e, 0x48, 0xc6, 0xab, 0x3d, 
  0x26, 0x3a, 0xcc, 0x3e, 0xfd, 0xe9, 0x69, 0xbf, 0xdf, 0x11, 0x0d, 0xbf, 
  0xd6, 0xb6, 0x28, 0xbf, 0xd2, 0xcf, 0xbd, 0xbe, 0x02, 0x6a, 0x06, 0x3e, 
  0xad, 0x43, 0x1f, 0xbe, 0x29, 0xe9, 0x93, 0x3e, 0x24, 0xec, 0xdd, 0x3e, 
  0xdd, 0xc6, 0xaa, 0x3e, 0xf6, 0xc0, 0x15, 0x3f, 0xc5, 0x30, 0xde, 0xbf, 
  0x05, 0xdf, 0xd9, 0x3e, 0x75, 0x0b, 0xaf, 0xbf, 0xf9, 0xbe, 0x0c, 0x3e, 
  0x53, 0x9b, 0x1f, 0xbd, 0xf8, 0x95, 0x0f, 0x3e, 0x73, 0x3e, 0xd7, 0xbe, 
  0x4d, 0x59, 0x62, 0x3e, 0x95, 0xc0, 0x5a, 0x3e, 0x66, 0xdc, 0x5b, 0x3f, 
  0x14, 0x52, 0x06, 0xbf, 0x26, 0xbe, 0x4e, 0xbe, 0x47, 0xe1, 0x74, 0x3e, 
  0x13, 0xc1, 0x87, 0x3e, 0xab, 0x67, 0xfb, 0x3e, 0x01, 0xb0, 0xe6, 0xbe, 
  0x1d, 0xa1, 0xa7, 0xbc, 0xd8, 0xbd, 0xf1, 0x3b, 0x3d, 0x5b, 0x7b, 0xbe, 
  0x38, 0xd2, 0xb8, 0xbe, 0x99, 0x79, 0x46, 0x3f, 0x95, 0x0f, 0x65, 0x3d, 
  0x15, 0x2a, 0x25, 0xbf, 0xac, 0xb0, 0x9e, 0xbd, 0xb5, 0x85, 0x5e, 0x3e, 
  0xd5, 0xa2, 0x1c, 0xbe, 0x40, 0x9e, 0xf5, 0xbe, 0xd1, 0x1d, 0x42, 0x3e, 
  0x21, 0xda, 0x8d, 0x3e, 0x97, 0x95, 0x25, 0x3e, 0x7b, 0x48, 0xe3, 0x3e, 
  0xc4, 0x1f, 0x2b, 0x3e, 0x1c, 0xbe, 0x1b, 0xbf, 0x7b, 0xef, 0x45, 0xbf, 
  0xbf, 0x10, 0x88, 0x3f, 0x82, 0x11, 0xa4, 0xbd, 0xae, 0x3d, 0x1b, 0xbd, 
  0x61, 0xf1, 0x6b, 0x3e, 0x23, 0x6c, 0x89, 0xbe, 0xba, 0x2d, 0x4e, 0xbe, 
  0x9d, 0x88, 0x11, 0xbe, 0x2e, 0x67, 0x86, 0x3e, 0xfb, 0xa1, 0x88, 0x3c, 
  0x22, 0xbc, 0x08, 0xbf, 0xda, 0xa8, 0x93, 0x3e, 0x14, 0xc1, 0xe8, 0xbe, 
  0xe6, 0xab, 0x0c, 0x3f, 0xf1, 0x42, 0x8a, 0xbd, 0xc3, 0x35, 0xb1, 0x3d, 
  0xe4, 0x80, 0xde, 0x3e, 0x16, 0x68, 0x2f, 0xbf, 0x0e, 0x61, 0x9e, 0x3e, 
  0x26, 0xe5, 0x41, 0x3f, 0x4b, 0x8b, 0xa6, 0x3e, 0xd0, 0x2a, 0xc6, 0xbe, 
  0x72, 0xd1, 0xa4, 0xbe, 0x99, 0x94, 0xd9, 0x3e, 0xdf, 0xab, 0x09, 0xbe, 
  0x3b, 0xbb, 0xab, 0xbf, 0x88, 0x47, 0xd4, 0x3e, 0x88, 0x58, 0xe9, 0x3c, 
  0x88, 0x2e, 0xbd, 0xbf, 0x5c, 0x9b, 0x22, 0x3d, 0xac, 0x58, 0xd2, 0x3d, 
  0x80, 0x9f, 0x0b, 0x3e, 0xe2, 0x40, 0xa1, 0xbe, 0x8a, 0xec, 0xc0, 0x3f, 
  0xd2, 0x96, 0xba, 0x3e, 0x9e, 0x6e, 0x42, 0xbe, 0x81, 0x3d, 0x8b, 0x3e, 
  0x97, 0xc2, 0xc7, 0xbe, 0x34, 0x2f, 0xe5, 0x3e, 0x45, 0x46, 0x11, 0xbe, 
  0x1f, 0x4d, 0x76, 0x3e, 0x25, 0xb6, 0x00, 0x3f, 0xb0, 0x30, 0x1d, 0xbf, 
  0xec, 0x01, 0x4e, 0xbf, 0x91, 0x68, 0x80, 0xbe, 0xf8, 0x16, 0x0f, 0x3f, 
  0x39, 0x30, 0x80, 0xbe, 0xa7, 0xa2, 0xdf, 0x3e, 0x1d, 0x51, 0x46, 0x3f, 
  0xdc, 0xbc, 0x15, 0xc0, 0x48, 0xdc, 0xea, 0x3e, 0x41, 0x0f, 0x03, 0x3f, 
  0x82, 0x22, 0x76, 0x3e, 0x90, 0xad, 0x39, 0x3e, 0xda, 0x5b, 0xd4, 0xbe, 
  0x45, 0x1c, 0x56, 0xbd, 0x89, 0x5a, 0x3a, 0xbf, 0xe1, 0x77, 0xa9, 0xbe, 
  0xb0, 0x54, 0xda, 0xbe, 0x56, 0xbe, 0xb8, 0x3e, 0x3b, 0xc2, 0x12, 0xbe, 
  0x74, 0x3e, 0x2e, 0x3f, 0xf3, 0x14, 0x24, 0xbe, 0xcb, 0xe3, 0xa5, 0x3e, 
  0x5a, 0xdf, 0xe5, 0xbd, 0x39, 0x24, 0x00, 0x3e, 0xe8, 0xd6, 0xd2, 0x3d, 
  0x98, 0x39, 0xdd, 0x3e, 0x93, 0x6a, 0x58, 0x3f, 0xa4, 0xc2, 0x91, 0x3d, 
  0x69, 0xce, 0x25, 0x3f, 0x68, 0x30, 0x5e, 0x3f, 0xff, 0xd7, 0xba, 0x3d, 
  0x10, 0x18, 0x9d, 0xbd, 0x1c, 0x5b, 0x14, 0xc0, 0xd2, 0xfe, 0x48, 0xbe, 
  0x8d, 0xc9, 0xeb, 0x3e, 0xd8, 0x86, 0x9f, 0x3e, 0xb4, 0x6e, 0xa3, 0x3a, 
  0xb7, 0xb1, 0xd4, 0x3e, 0xd5, 0x17, 0xd1, 0x3c, 0x3b, 0xec, 0x5d, 0x3d, 
  0xb3, 0xe4, 0x89, 0x3e, 0x71, 0xf2, 0xd7, 0xbc, 0xf9, 0x18, 0xe0, 0x3f, 
  0x6c, 0xfa, 0xb8, 0x3e, 0x75, 0xee, 0x28, 0x3e, 0xee, 0x6a, 0x97, 0x3e, 
  0xd1, 0x37, 0xb8, 0x3d, 0x3f, 0xc4, 0x84, 0xbe, 0xe3, 0x89, 0xab, 0x3d, 
  0xab, 0x9d, 0x67, 0x3f, 0xbb, 0x1e, 0xad, 0xbd, 0xe2, 0xec, 0x6b, 0xbb, 
  0xdf, 0x71, 0x56, 0x3e, 0xc0, 0xc6, 0xba, 0xbf, 0xd6, 0xd5, 0x99, 0x3f, 
  0xf6, 0x09, 0x1b, 0xbe, 0xef, 0x88, 0xa3, 0x3c, 0x70, 0x79, 0x57, 0x3d, 
  0xa5, 0x33, 0x8e, 0xbc, 0x80, 0x6f, 0xc1, 0x3e, 0x0c, 0x4f, 0x4d, 0x3d, 
  0xb6, 0xb9, 0x41, 0xbd, 0xa7, 0x7c, 0xd0, 0xbe, 0x08, 0xc0, 0x99, 0x3f, 
  0x7e, 0x1f, 0x62, 0x3d, 0x5b, 0xf9, 0x1f, 0xbd, 0x9b, 0x80, 0x8a, 0x3d, 
  0x8a, 0xea, 0xf4, 0x3d, 0xef, 0xc2, 0x82, 0x3f, 0x8a, 0x6a, 0xcd, 0xbe, 
  0x7a, 0x26, 0x13, 0xbf, 0x7b, 0x51, 0x97, 0x3f, 0x37, 0xfd, 0x22, 0x3f, 
  0x0f, 0x6d, 0x35, 0xbc, 0x13, 0xdb, 0x1a, 0x3f, 0xef, 0xc4, 0x70, 0x3d, 
  0x7f, 0x9f, 0x51, 0x3f, 0x37, 0x70, 0x42, 0x3f, 0xae, 0xe1, 0xb7, 0x3f, 
  0xcf, 0x6d, 0x88, 0x3d, 0x73, 0x8e, 0xd5, 0x3f, 0x65, 0x21, 0x4c, 0x3e, 
  0xc6, 0x3b, 0x16, 0x3f, 0x1d, 0x38, 0x7e, 0xbc, 0x2e, 0xc9, 0x58, 0x3d, 
  0x5c, 0xdf, 0xaa, 0xbe, 0x2b, 0xc8, 0x62, 0x3e, 0x0e, 0xb1, 0x8b, 0x3f, 
  0x89, 0x32, 0x33, 0xbf, 0x47, 0xa3, 0x8e, 0x3d, 0x66, 0x54, 0x02, 0xbe, 
  0x21, 0x06, 0x60, 0x3e, 0x08, 0xfb, 0x8f, 0xbd, 0x6d, 0x40, 0x03, 0xbe, 
  0xca, 0x1b, 0xda, 0x3d, 0xf8, 0xd5, 0x1e, 0x3f, 0xf8, 0xdd, 0x9d, 0x3f, 
  0x03, 0x68, 0x6a, 0x3f, 0xcf, 0xaf, 0xaa, 0xbd, 0x1e, 0x4d, 0xe6, 0xbd, 
  0x37, 0x80, 0x84, 0x3f, 0x9a, 0xf5, 0xe5, 0x3e, 0xe4, 0xb5, 0x69, 0x3e, 
  0xb6, 0xbd, 0x8a, 0x3c, 0x53, 0x5f, 0x55, 0xbe, 0x63, 0xf6, 0x3c, 0x3e, 
  0x65, 0xa3, 0xb2, 0x3e, 0x3b, 0x31, 0xd2, 0xbe, 0xcb, 0x75, 0x44, 0xbe, 
  0x94, 0xda, 0xc9, 0x3e, 0x5d, 0xd2, 0x6a, 0xbe, 0x71, 0x52, 0x1f, 0x3f, 
  0x4e, 0xec, 0x01, 0xbe, 0xb9, 0x82, 0x9b, 0x3e, 0xb6, 0x52, 0x22, 0x3f, 
  0x6e, 0x7b, 0x77, 0xbe, 0xd4, 0x0c, 0x0e, 0x3f, 0x9b, 0x19, 0x3f, 0xbf, 
  0x18, 0xd1, 0x23, 0x3f, 0x38, 0x42, 0x21, 0x3f, 0x41, 0x79, 0x4d, 0xbe, 
  0x31, 0x11, 0x8f, 0xbc, 0xff, 0xc3, 0xe8, 0x3e, 0x12, 0x5a, 0xff, 0xbe, 
  0xd7, 0xa4, 0x32, 0x3e, 0xfc, 0x0a, 0xac, 0xbe, 0xa6, 0x18, 0x88, 0x3f, 
  0x76, 0x80, 0x73, 0x3e, 0x9e, 0x1a, 0x4f, 0x3e, 0xe7, 0x19, 0x86, 0x3e, 
  0x0c, 0xe2, 0xb6, 0x3e, 0xe8, 0x64, 0x22, 0x3f, 0x5d, 0x2c, 0xad, 0xbe, 
  0x66, 0x32, 0xa8, 0x3f, 0xbe, 0x3a, 0x0d, 0x3f, 0xf1, 0xc7, 0x89, 0xbf, 
  0x6e, 0x27, 0xc7, 0x3d, 0x87, 0x76, 0x10, 0x3f, 0x36, 0x57, 0x83, 0x3d, 
  0x6d, 0x28, 0xb0, 0xbe, 0xd8, 0xd8, 0x60, 0xbf, 0x65, 0x91, 0x0d, 0xbe, 
  0xa1, 0xd1, 0xbf, 0xbf, 0xe5, 0x28, 0x8e, 0x3d, 0x1b, 0xf5, 0xbe, 0xbf, 
  0xee, 0xf3, 0x15, 0x3e, 0x19, 0x5a, 0xc8, 0x3e, 0x32, 0xc2, 0x24, 0x3f, 
  0x9c, 0x4e, 0xca, 0x3e, 0x40, 0x31, 0x4e, 0xbf, 0x86, 0x73, 0x06, 0x3e, 
  0x38, 0x2c, 0x57, 0xbf, 0x3a, 0xb8, 0x01, 0x3f, 0xdc, 0xee, 0xac, 0x3e, 
  0x77, 0x3e, 0x03, 0x3f, 0xab, 0xed, 0xa8, 0xbc, 0x8c, 0x66, 0x27, 0x3f, 
  0x33, 0x8d, 0x07, 0x3f, 0x14, 0x98, 0xa6, 0x3f, 0xd9, 0xfe, 0x9c, 0xbe, 
  0xfb, 0x66, 0x32, 0xbf, 0xc3, 0xab, 0xa7, 0x3d, 0x7e, 0x21, 0x27, 0x3f, 
  0xc1, 0x92, 0x22, 0x3f, 0xb4, 0xb9, 0xe5, 0xbe, 0x1d, 0x8f, 0xc9, 0x3e, 
  0xfc, 0x57, 0xaa, 0x3d, 0x43, 0xb2, 0xdf, 0x3d, 0xcf, 0x6f, 0xfa, 0xbe, 
  0xd1, 0x4a, 0x54, 0x3e, 0x12, 0x53, 0x99, 0x3e, 0x99, 0x89, 0x4b, 0x3f, 
  0x2b, 0xf6, 0xe1, 0xbf, 0xf8, 0x1c, 0x4c, 0x3f, 0xa6, 0xc6, 0xa0, 0x3d, 
  0x73, 0xf2, 0x1b, 0xbf, 0x70, 0x8f, 0xd4, 0xbf, 0x2b, 0x4a, 0x31, 0x3f, 
  0xd1, 0xaf, 0xe4, 0x3e, 0xcc, 0x0e, 0x3e, 0x3e, 0x34, 0x22, 0x7a, 0x3f, 
  0x1d, 0x0a, 0xcc, 0xbe, 0xc2, 0xc6, 0xb4, 0x3e, 0xf4, 0x44, 0xef, 0x3f, 
  0x6f, 0x37, 0x0d, 0x3d, 0x27, 0xa6, 0x59, 0xbe, 0x83, 0x35, 0xe8, 0xbe, 
  0x1f, 0x31, 0xd8, 0x3e, 0xd1, 0x02, 0xa8, 0xbe, 0xe8, 0x48, 0x18, 0x3e, 
  0xdc, 0xd5, 0xd3, 0x3e, 0x78, 0xa1, 0xbc, 0x3e, 0x2c, 0x20, 0xa6, 0xbe, 
  0xb8, 0xfe, 0x9b, 0xbd, 0x0b, 0xfb, 0xe1, 0xbe, 0x63, 0x3d, 0x25, 0x3f, 
  0xbf, 0x81, 0x69, 0x3f, 0x9e, 0xdc, 0xd3, 0x3e, 0x40, 0xf8, 0x40, 0xbd, 
  0xdd, 0x14, 0x51, 0x3d, 0xb3, 0xc4, 0x07, 0xbf, 0x48, 0x2c, 0x0d, 0xbe, 
  0x4b, 0x45, 0xcd, 0x3d, 0x05, 0xce, 0xdd, 0xbe, 0x1f, 0x29, 0x2a, 0x3e, 
  0x98, 0x06, 0x28, 0x3f, 0x8b, 0x0f, 0x53, 0xbe, 0xe1, 0x33, 0x92, 0x3f, 
  0x6b, 0x32, 0xa9, 0xbe, 0x89, 0x86, 0x42, 0x3e, 0x46, 0x4e, 0x4b, 0x3f, 
  0x41, 0x3f, 0x07, 0xbd, 0x66, 0x57, 0xe5, 0x3e, 0x86, 0xd5, 0xa0, 0x3e, 
  0x45, 0x5e, 0x1f, 0x3f, 0x83, 0xb0, 0x14, 0xbf, 0x60, 0x47, 0xc1, 0xbf, 
  0x76, 0x76, 0xa3, 0xbf, 0x41, 0x1a, 0x18, 0xbf, 0x6d, 0x70, 0x5d, 0xbf, 
  0xfe, 0xd2, 0xa6, 0xbe, 0xd4, 0x5a, 0x04, 0xbe, 0x5c, 0x91, 0x14, 0x3f, 
  0x2d, 0x31, 0x7d, 0x3e, 0x5d, 0x55, 0xeb, 0x3e, 0x85, 0x41, 0x37, 0x3f, 
  0x1b, 0xab, 0xaf, 0x3e, 0xf3, 0x11, 0xaa, 0x3e, 0x4d, 0x99, 0x24, 0x3f, 
  0xf8, 0x07, 0x90, 0xbe, 0x2c, 0xb6, 0xf6, 0x3e, 0x8e, 0x07, 0xdf, 0x3d, 
  0x0a, 0x7d, 0x0a, 0x3f, 0xd0, 0xdf, 0x2d, 0x3f, 0xa0, 0x24, 0xe1, 0xbe, 
  0x42, 0x86, 0x41, 0x3f, 0x23, 0x1a, 0x99, 0x3f, 0x54, 0x05, 0x8f, 0xbf, 
  0xa3, 0x49, 0x54, 0x3f, 0x71, 0x0d, 0x81, 0xbe, 0xab, 0x33, 0x48, 0x3f, 
  0x3b, 0x6d, 0xbe, 0xbe, 0xfa, 0xd6, 0x93, 0xbe, 0xbe, 0x94, 0x16, 0x3f, 
  0xee, 0x3e, 0x57, 0xbf, 0x05, 0xf1, 0xbe, 0x3f, 0xb9, 0x0a, 0x78, 0xbf, 
  0xf3, 0x0d, 0x81, 0x3f, 0xfb, 0xa7, 0x2d, 0x3f, 0xc6, 0x2a, 0x6d, 0x3f, 
  0x89, 0xd6, 0x37, 0x3f, 0xa4, 0x18, 0x3d, 0x3f, 0xfa, 0x3b, 0x40, 0x3f, 
  0x77, 0x9f, 0x32, 0x3f, 0x5a, 0x92, 0x01, 0xbf, 0x93, 0x39, 0x9b, 0xbf, 
  0xb5, 0x6f, 0x00, 0xbe, 0xc0, 0xee, 0x95, 0x3e, 0x72, 0xb0, 0x49, 0xbe, 
  0x92, 0x5f, 0x23, 0xbe, 0x19, 0x66, 0xb8, 0xbd, 0xfa, 0xf9, 0xff, 0xff, 
  0x04, 0x00, 0x00, 0x00, 0xc0, 0x04, 0x00, 0x00, 0x4b, 0xb5, 0xdb, 0x3c, 
  0x0c, 0x3c, 0x09, 0xbf, 0x41, 0x89, 0xe2, 0x3e, 0x94, 0x32, 0x3d, 0xbf, 
  0x17, 0xa5, 0x25, 0xbf, 0x1d, 0xaf, 0x4d, 0x3f, 0xaa, 0xf6, 0x2e, 0xbf, 
  0xcb, 0x7a, 0x7d, 0xbe, 0x09, 0xca, 0xbe, 0x3e, 0x2e, 0x86, 0xfd, 0xbe, 
  0x73, 0x78, 0xd0, 0xbf, 0xdd, 0x9b, 0x5b, 0xbe, 0x8e, 0x2a, 0x2e, 0x3f, 
  0xe7, 0x42, 0x39, 0xbf, 0x19, 0xf2, 0x36, 0xbf, 0xa0, 0xdb, 0x35, 0xbf, 
  0xca, 0x17, 0x5b, 0xbf, 0x1d, 0xd4, 0x36, 0x3e, 0x27, 0x1e, 0x4a, 0x3e, 
  0x07, 0x8d, 0x15, 0xbf, 0xee, 0xc5, 0x06, 0xc0, 0x46, 0x1b, 0x98, 0xbd, 
  0xc3, 0x42, 0xe8, 0x3e, 0xfb, 0x34, 0xd5, 0x3e, 0xa6, 0x4f, 0x6b, 0x3e, 
  0xb8, 0x0c, 0x42, 0xbf, 0xfd, 0x4f, 0x20, 0xbf, 0x58, 0x18, 0xed, 0x3e, 
  0x42, 0x8a, 0xb8, 0x3e, 0x64, 0x8c, 0x35, 0x3f, 0x04, 0xcc, 0x45, 0xbe, 
  0xc9, 0x5e, 0x18, 0xbf, 0xf1, 0x58, 0x83, 0xbf, 0xdc, 0x9f, 0xf4, 0xbe, 
  0x9e, 0x6d, 0xae, 0x3e, 0xae, 0x1c, 0x5e, 0x3c, 0xd9, 0xe4, 0xed, 0x3e, 
  0xc5, 0x53, 0x8c, 0x3e, 0xe8, 0xe8, 0xfb, 0xbf, 0xdb, 0xf4, 0x95, 0xbf, 
  0x71, 0xdc, 0x9f, 0x3e, 0x35, 0xef, 0x5e, 0x3e, 0xf2, 0x1e, 0x8c, 0xbf, 
  0xc2, 0x4f, 0x03, 0xbf, 0x6e, 0x3b, 0x59, 0x3e, 0xbd, 0x1b, 0x64, 0xbf, 
  0xe7, 0xca, 0xd0, 0xbf, 0xf0, 0x38, 0xe8, 0xbe, 0xe6, 0xc5, 0x12, 0x3a, 
  0xcb, 0x2c, 0xa0, 0x3e, 0x9d, 0xdd, 0x04, 0x3d, 0x80, 0x74, 0xa6, 0xbe, 
  0x2d, 0x4c, 0xe7, 0xbd, 0x13, 0x4b, 0xe7, 0x3e, 0xe0, 0xff, 0xb2, 0xbe, 
  0xc1, 0x18, 0xec, 0x3d, 0x2f, 0xdd, 0x36, 0x3e, 0x9d, 0xcd, 0xc5, 0xbd, 
  0x84, 0x70, 0xb4, 0xbf, 0x9d, 0x71, 0xa4, 0xbd, 0xca, 0x45, 0x07, 0x3f, 
  0x5f, 0x5a, 0x03, 0xbf, 0x71, 0xb3, 0x63, 0xbf, 0x13, 0x82, 0xf0, 0xbf, 
  0xfa, 0x56, 0x86, 0x3e, 0xb5, 0x6f, 0x2d, 0x3f, 0x95, 0x7a, 0x54, 0xbf, 
  0xa8, 0xe1, 0xe5, 0xbf, 0x6b, 0xa7, 0x4b, 0x3f, 0xb6, 0xd9, 0x83, 0xbe, 
  0x06, 0x18, 0xeb, 0x3c, 0xea, 0xdc, 0x6a, 0x3f, 0x8c, 0x92, 0xde, 0xbd, 
  0xf5, 0x14, 0x29, 0xbd, 0xdf, 0x32, 0x98, 0xbf, 0x7b, 0x71, 0xe3, 0x3e, 
  0x07, 0x5a, 0x8d, 0xbd, 0x73, 0x16, 0xa7, 0xbe, 0x25, 0xe9, 0x46, 0xbf, 
  0x60, 0x3a, 0x02, 0xc0, 0x08, 0xf4, 0x93, 0xbc, 0x5f, 0x37, 0xae, 0xbe, 
  0x00, 0x8d, 0xca, 0xbe, 0x76, 0x05, 0xf3, 0x3d, 0x52, 0x12, 0x1e, 0xbd, 
  0xa6, 0x41, 0x29, 0x3e, 0x90, 0x0c, 0x06, 0xbe, 0xdf, 0x13, 0xab, 0xbe, 
  0xd1, 0x78, 0xe1, 0x3b, 0x5d, 0x3a, 0xd2, 0xbd, 0x1b, 0xdb, 0x90, 0xbf, 
  0xde, 0xe9, 0xd5, 0x3e, 0x3c, 0x81, 0x87, 0x3e, 0x92, 0xdf, 0xd3, 0xbe, 
  0x01, 0x35, 0x2a, 0x3f, 0x4f, 0x74, 0xd4, 0xbf, 0x16, 0x55, 0x61, 0xbf, 
  0x3b, 0x3d, 0x54, 0xbd, 0x46, 0x47, 0xc2, 0x3e, 0xf5, 0x93, 0xfc, 0xbe, 
  0x2a, 0x59, 0x15, 0xbe, 0x7a, 0x8b, 0x0f, 0xbf, 0xfa, 0x86, 0xb6, 0xbd, 
  0x06, 0x57, 0xe9, 0xbc, 0x26, 0x2f, 0x02, 0x3f, 0x07, 0x59, 0xfb, 0xbe, 
  0x95, 0x03, 0x9c, 0xbe, 0xb4, 0x53, 0x9d, 0xbf, 0x63, 0x85, 0x57, 0x3e, 
  0xf2, 0x85, 0x09, 0xbf, 0x66, 0xaa, 0x83, 0xbf, 0x7b, 0x8d, 0x9c, 0x3d, 
  0x7b, 0x1d, 0x1a, 0x3f, 0x70, 0xc6, 0x17, 0xbf, 0xdd, 0xed, 0xc7, 0xbe, 
  0x97, 0xc2, 0x28, 0x3f, 0x58, 0xc2, 0xf7, 0x3d, 0x20, 0x51, 0x19, 0x3f, 
  0xf1, 0xfb, 0x1c, 0x3f, 0x25, 0x0c, 0x69, 0x3d, 0x1d, 0xb5, 0x82, 0x3e, 
  0x83, 0x9b, 0x2e, 0x3e, 0xc0, 0x8d, 0x14, 0xbd, 0xac, 0x4e, 0x2b, 0xbe, 
  0x52, 0xbd, 0x58, 0xbf, 0xb1, 0x04, 0x91, 0xbf, 0xa9, 0x87, 0xaa, 0xbf, 
  0x6b, 0x60, 0x66, 0xbe, 0x22, 0xfe, 0x8f, 0xbf, 0xdd, 0x72, 0xc0, 0xbf, 
  0xd8, 0xfc, 0x85, 0x3e, 0xf4, 0x46, 0x4f, 0x3d, 0xc9, 0xac, 0x76, 0x3d, 
  0x70, 0x46, 0xba, 0xbd, 0x78, 0x95, 0xce, 0x3c, 0xa2, 0x4a, 0xed, 0xbe, 
  0x8f, 0x4a, 0x72, 0x3e, 0xd3, 0x09, 0x0f, 0xc0, 0x33, 0x8a, 0x82, 0xbf, 
  0x53, 0xbb, 0xbc, 0xbb, 0x02, 0x04, 0xde, 0x3e, 0xf1, 0x6d, 0xa4, 0x3d, 
  0x43, 0x4e, 0xf3, 0xbe, 0x16, 0x3c, 0x9d, 0x3e, 0x5b, 0xc7, 0x06, 0xbf, 
  0x67, 0xe5, 0x40, 0xbf, 0x85, 0x84, 0xe6, 0xbf, 0x75, 0x3e, 0x0d, 0xbf, 
  0x25, 0x74, 0xb2, 0xbf, 0xa2, 0xf7, 0x6a, 0x3e, 0x60, 0x9b, 0x08, 0x3f, 
  0x05, 0x46, 0xb2, 0xbd, 0xfc, 0x0b, 0x0a, 0xbe, 0x22, 0x0f, 0xdd, 0x3a, 
  0xd5, 0x91, 0xaa, 0xbe, 0x5c, 0x1e, 0x9b, 0x3e, 0x7a, 0x8f, 0xef, 0x3d, 
  0xdc, 0x34, 0x77, 0x3f, 0xf4, 0x2d, 0x2a, 0x3f, 0x75, 0xad, 0x93, 0xbf, 
  0x57, 0xd8, 0x2a, 0xbd, 0xe7, 0x97, 0x00, 0x3f, 0x45, 0x28, 0x06, 0xc0, 
  0x59, 0x02, 0x9c, 0xbf, 0x14, 0x7d, 0xd8, 0x3e, 0xf6, 0x7b, 0x05, 0xbf, 
  0xd9, 0x27, 0xd7, 0xbe, 0x77, 0xa1, 0xac, 0x3e, 0xb1, 0x1e, 0x4f, 0x3e, 
  0xb0, 0x39, 0x23, 0x3f, 0x74, 0xda, 0xd9, 0xbe, 0x4b, 0xe6, 0xa0, 0xbd, 
  0x7d, 0x74, 0x31, 0xbf, 0x3c, 0x73, 0x70, 0x3e, 0x4a, 0xaf, 0x0a, 0xbe, 
  0xda, 0xe4, 0x63, 0xbf, 0xd2, 0xd0, 0x5c, 0x3f, 0xa5, 0x3e, 0x9f, 0xbe, 
  0x14, 0x46, 0x58, 0xbd, 0x28, 0xd3, 0x4b, 0x3e, 0x87, 0x30, 0x06, 0xbe, 
  0x60, 0x88, 0x04, 0xbf, 0x20, 0xc8, 0x29, 0x3c, 0xbc, 0xc7, 0xed, 0xbe, 
  0x14, 0x25, 0xc3, 0xbf, 0x02, 0xb2, 0x04, 0x3d, 0x0e, 0x97, 0xe9, 0x3e, 
  0xc5, 0x91, 0x96, 0x3e, 0xec, 0x14, 0xd7, 0xbf, 0xc1, 0xd1, 0x06, 0xbf, 
  0xa8, 0x9b, 0x01, 0xbf, 0xfe, 0x25, 0xbd, 0x3c, 0x93, 0xa5, 0x31, 0xbf, 
  0xc7, 0x92, 0x6a, 0xbf, 0xfa, 0xe0, 0x9d, 0xbf, 0x45, 0xd8, 0x3b, 0x3d, 
  0x45, 0x47, 0xa5, 0x3e, 0xb4, 0x83, 0x29, 0x3f, 0x57, 0x96, 0x05, 0xbf, 
  0x19, 0xc8, 0x84, 0xbf, 0x48, 0xc8, 0xee, 0xbf, 0x20, 0xc4, 0x08, 0x3d, 
  0x58, 0x53, 0x99, 0x3d, 0x38, 0x9c, 0x4b, 0x3f, 0x68, 0x82, 0x5f, 0xbe, 
  0x43, 0x4a, 0x25, 0x3e, 0x77, 0x93, 0x51, 0x3f, 0x6b, 0x29, 0xa3, 0xbe, 
  0x54, 0x99, 0xc3, 0xbf, 0xcc, 0xc2, 0x38, 0x3f, 0x53, 0xb3, 0x85, 0x3d, 
  0xdc, 0x7f, 0x8c, 0xbd, 0x9b, 0xed, 0x0a, 0xbe, 0x32, 0x60, 0x5c, 0xbe, 
  0x62, 0x85, 0xb0, 0xbd, 0x9a, 0x29, 0xcc, 0x3e, 0xfb, 0x16, 0x22, 0xbe, 
  0x56, 0x16, 0xb0, 0xbf, 0x1f, 0xdf, 0xab, 0x3e, 0x9c, 0x94, 0xf3, 0xbf, 
  0xce, 0x8a, 0xae, 0xbe, 0x8f, 0xa1, 0x59, 0xbf, 0xb5, 0xd1, 0x88, 0xbf, 
  0xab, 0xd6, 0x69, 0x3f, 0x45, 0x0f, 0x70, 0x3e, 0xff, 0xca, 0xe0, 0x3e, 
  0x73, 0xdd, 0x29, 0xbf, 0x11, 0x6d, 0x3a, 0xbf, 0x6d, 0x87, 0x7b, 0x3e, 
  0x93, 0x05, 0xaa, 0xbe, 0xa0, 0x3d, 0x8a, 0xbd, 0xf3, 0x3b, 0xac, 0xbe, 
  0xb0, 0x03, 0x70, 0xbf, 0x8e, 0x06, 0x17, 0x3f, 0xf3, 0x21, 0xee, 0x3d, 
  0x70, 0x51, 0x9e, 0xbe, 0x36, 0x0b, 0xc7, 0xbf, 0xa6, 0x30, 0x0f, 0x3f, 
  0x71, 0xaa, 0xba, 0xbe, 0x5b, 0x22, 0x4a, 0xbf, 0x98, 0x50, 0xc0, 0xbf, 
  0x6a, 0x3c, 0xb0, 0xbf, 0x70, 0xa7, 0x24, 0x3f, 0x0f, 0x97, 0x76, 0x3f, 
  0x96, 0x13, 0x58, 0xbf, 0x15, 0x2a, 0x0d, 0xbf, 0xb7, 0xe3, 0xb8, 0x3e, 
  0x5d, 0x93, 0x8b, 0xbf, 0x44, 0x60, 0x22, 0x3e, 0xe7, 0x2d, 0x73, 0xbf, 
  0xdb, 0x6d, 0xd4, 0xbe, 0x53, 0x58, 0x54, 0xbf, 0x54, 0x4f, 0x40, 0xbf, 
  0xd4, 0x17, 0xa8, 0xbe, 0x36, 0xcf, 0x06, 0x3b, 0x0c, 0x6c, 0xd4, 0xbc, 
  0x04, 0x4b, 0x99, 0xbd, 0xb5, 0xae, 0xd1, 0xbe, 0xa8, 0xc2, 0x67, 0xbe, 
  0x77, 0x29, 0x8e, 0x3e, 0xdb, 0x03, 0x78, 0xbe, 0xa6, 0x5c, 0x31, 0xbf, 
  0xd6, 0x6e, 0x8e, 0xbc, 0xd1, 0x7e, 0x10, 0xbf, 0x82, 0x11, 0xc4, 0xbf, 
  0xe4, 0x9d, 0x1b, 0x3f, 0xf6, 0x4d, 0x3e, 0x3f, 0x6f, 0xe3, 0xcf, 0xbe, 
  0xb3, 0xdb, 0xa4, 0xbf, 0x45, 0x6a, 0xfb, 0xbe, 0x90, 0xf9, 0x9e, 0x3d, 
  0x53, 0xf3, 0x30, 0xbe, 0xa1, 0xd0, 0x3f, 0xbe, 0x4b, 0x08, 0x38, 0x3e, 
  0x33, 0x00, 0x99, 0xbe, 0xc5, 0xd0, 0x79, 0xbf, 0x1d, 0xb6, 0x94, 0xbf, 
  0x54, 0x39, 0x8b, 0xbe, 0x92, 0x26, 0x82, 0xbf, 0x6f, 0xa7, 0x87, 0x3c, 
  0xe6, 0xfb, 0x6a, 0xbf, 0x7a, 0x0d, 0xe6, 0x3e, 0x05, 0xba, 0xa4, 0x3e, 
  0xe7, 0x2f, 0xb5, 0x3e, 0xf5, 0xe5, 0x93, 0xbf, 0x0a, 0xd2, 0x18, 0x3f, 
  0x7c, 0x72, 0x9b, 0x3e, 0x7b, 0x1d, 0x0c, 0xbf, 0xf8, 0xd8, 0x84, 0xbe, 
  0xac, 0xa9, 0x15, 0xbd, 0x1e, 0xac, 0xee, 0x3e, 0x00, 0xf5, 0x8c, 0x3e, 
  0x00, 0x04, 0xc0, 0xbe, 0xc8, 0xd8, 0x67, 0xbf, 0x41, 0xaf, 0xc0, 0xbe, 
  0x13, 0x2a, 0x35, 0xbe, 0x75, 0x7e, 0x46, 0xbf, 0xce, 0x44, 0xa7, 0xbf, 
  0xde, 0x49, 0x22, 0x3f, 0xc0, 0x4b, 0x80, 0xbe, 0x84, 0x0b, 0xa0, 0xbf, 
  0x3c, 0x56, 0x09, 0xbf, 0xb1, 0xcc, 0x5c, 0x3e, 0xe5, 0x3a, 0x91, 0x3e, 
  0xc6, 0xfe, 0xff, 0xff, 0x04, 0x00, 0x00, 0x00, 0x4c, 0x00, 0x00, 0x00, 
  0x58, 0x0b, 0x40, 0x3e, 0xab, 0xab, 0x05, 0xbe, 0x3e, 0x73, 0x8a, 0x3e, 
  0xd8, 0x83, 0xac, 0x3e, 0x7d, 0xb5, 0x31, 0x3e, 0xce, 0x6c, 0xf4, 0x3e, 
  0xcf, 0xc6, 0x53, 0xbe, 0xfb, 0xe6, 0x2d, 0x3f, 0x28, 0xbf, 0x80, 0x3c, 
  0x19, 0xd3, 0x59, 0xbd, 0xf6, 0x49, 0x31, 0x3d, 0x09, 0x58, 0x82, 0x3f, 
  0xf4, 0xf7, 0x6f, 0xbe, 0xf0, 0x20, 0x34, 0xbf, 0x65, 0xaa, 0x6f, 0xbe, 
  0x84, 0x9c, 0x3f, 0xbf, 0xfe, 0x0c, 0x01, 0xbf, 0x22, 0x58, 0x27, 0xbf, 
  0x7e, 0x90, 0x55, 0xbf, 0x1e, 0xff, 0xff, 0xff, 0x04, 0x00, 0x00, 0x00, 
  0x40, 0x00, 0x00, 0x00, 0x13, 0x2b, 0xc2, 0x3f, 0xda, 0x01, 0x57, 0x3e, 
  0xab, 0xa6, 0xd4, 0x3e, 0xbf, 0x4d, 0xa0, 0x3e, 0x95, 0x6a, 0x3f, 0x3f, 
  0x2c, 0x9c, 0x3e, 0x3f, 0x11, 0xf6, 0xa4, 0x3e, 0x58, 0x25, 0xe2, 0x3d, 
  0x88, 0x57, 0x8c, 0x3f, 0xa6, 0x3d, 0x4b, 0x3f, 0x67, 0xf5, 0x2b, 0xbf, 
  0x05, 0x59, 0x7e, 0x3f, 0x39, 0xf2, 0x9c, 0x3f, 0xe0, 0xd5, 0x5a, 0xbe, 
  0x39, 0xab, 0x94, 0xbd, 0xcf, 0x88, 0x37, 0xbe, 0x68, 0xfa, 0xff, 0xff, 
  0x6c, 0xfa, 0xff, 0xff, 0x0f, 0x00, 0x00, 0x00, 0x4d, 0x4c, 0x49, 0x52, 
  0x20, 0x43, 0x6f, 0x6e, 0x76, 0x65, 0x72, 0x74, 0x65, 0x64, 0x2e, 0x00, 
  0x01, 0x00, 0x00, 0x00, 0x14, 0x00, 0x00, 0x00, 0x00, 0x00, 0x0e, 0x00, 
  0x18, 0x00, 0x14, 0x00, 0x10, 0x00, 0x0c, 0x00, 0x08, 0x00, 0x04, 0x00, 
  0x0e, 0x00, 0x00, 0x00, 0x14, 0x00, 0x00, 0x00, 0x1c, 0x00, 0x00, 0x00, 
  0x34, 0x01, 0x00, 0x00, 0x38, 0x01, 0x00, 0x00, 0x3c, 0x01, 0x00, 0x00, 
  0x04, 0x00, 0x00, 0x00, 0x6d, 0x61, 0x69, 0x6e, 0x00, 0x00, 0x00, 0x00, 
  0x04, 0x00, 0x00, 0x00, 0xdc, 0x00, 0x00, 0x00, 0x94, 0x00, 0x00, 0x00, 
  0x50, 0x00, 0x00, 0x00, 0x14, 0x00, 0x00, 0x00, 0x00, 0x00, 0x0e, 0x00, 
  0x1a, 0x00, 0x14, 0x00, 0x10, 0x00, 0x0c, 0x00, 0x0b, 0x00, 0x04, 0x00, 
  0x0e, 0x00, 0x00, 0x00, 0x1c, 0x00, 0x00, 0x00, 0x00, 0x00, 0x00, 0x09, 
  0x1c, 0x00, 0x00, 0x00, 0x20, 0x00, 0x00, 0x00, 0x01, 0x00, 0x00, 0x00, 
  0x00, 0x00, 0x06, 0x00, 0x08, 0x00, 0x04, 0x00, 0x06, 0x00, 0x00, 0x00, 
  0x00, 0x00, 0x80, 0x3f, 0x01, 0x00, 0x00, 0x00, 0x0a, 0x00, 0x00, 0x00, 
  0x01, 0x00, 0x00, 0x00, 0x09, 0x00, 0x00, 0x00, 0xce, 0xff, 0xff, 0xff, 
  0x10, 0x00, 0x00, 0x00, 0x00, 0x00, 0x00, 0x08, 0x0c, 0x00, 0x00, 0x00, 
  0x10, 0x00, 0x00, 0x00, 0x30, 0xfb, 0xff, 0xff, 0x01, 0x00, 0x00, 0x00, 
  0x09, 0x00, 0x00, 0x00, 0x03, 0x00, 0x00, 0x00, 0x08, 0x00, 0x00, 0x00, 
  0x03, 0x00, 0x00, 0x00, 0x02, 0x00, 0x00, 0x00, 0x00, 0x00, 0x0e, 0x00, 
  0x14, 0x00, 0x00, 0x00, 0x10, 0x00, 0x0c, 0x00, 0x0b, 0x00, 0x04, 0x00, 
  0x0e, 0x00, 0x00, 0x00, 0x10, 0x00, 0x00, 0x00, 0x00, 0x00, 0x00, 0x08, 
  0x10, 0x00, 0x00, 0x00, 0x14, 0x00, 0x00, 0x00, 0xba, 0xff, 0xff, 0xff, 
  0x00, 0x00, 0x00, 0x01, 0x01, 0x00, 0x00, 0x00, 0x08, 0x00, 0x00, 0x00, 
  0x03, 0x00, 0x00, 0x00, 0x07, 0x00, 0x00, 0x00, 0x04, 0x00, 0x00, 0x00, 
  0x01, 0x00, 0x00, 0x00, 0x00, 0x00, 0x0e, 0x00, 0x16, 0x00, 0x00, 0x00, 
  0x10, 0x00, 0x0c, 0x00, 0x0b, 0x00, 0x04, 0x00, 0x0e, 0x00, 0x00, 0x00, 
  0x18, 0x00, 0x00, 0x00, 0x00, 0x00, 0x00, 0x08, 0x18, 0x00, 0x00, 0x00, 
  0x1c, 0x00, 0x00, 0x00, 0x00, 0x00, 0x06, 0x00, 0x08, 0x00, 0x07, 0x00, 
  0x06, 0x00, 0x00, 0x00, 0x00, 0x00, 0x00, 0x01, 0x01, 0x00, 0x00, 0x00, 
  0x07, 0x00, 0x00, 0x00, 0x03, 0x00, 0x00, 0x00, 0x00, 0x00, 0x00, 0x00, 
  0x05, 0x00, 0x00, 0x00, 0x06, 0x00, 0x00, 0x00, 0x01, 0x00, 0x00, 0x00, 
  0x0a, 0x00, 0x00, 0x00, 0x01, 0x00, 0x00, 0x00, 0x00, 0x00, 0x00, 0x00, 
  0x0b, 0x00, 0x00, 0x00, 0xe8, 0x03, 0x00, 0x00, 0x94, 0x03, 0x00, 0x00, 
  0x40, 0x03, 0x00, 0x00, 0x00, 0x03, 0x00, 0x00, 0xc0, 0x02, 0x00, 0x00, 
  0x74, 0x02, 0x00, 0x00, 0x10, 0x02, 0x00, 0x00, 0x7c, 0x01, 0x00, 0x00, 
  0xe0, 0x00, 0x00, 0x00, 0x60, 0x00, 0x00, 0x00, 0x04, 0x00, 0x00, 0x00, 
  0x5a, 0xfc, 0xff, 0xff, 0x00, 0x00, 0x00, 0x01, 0x14, 0x00, 0x00, 0x00, 
  0x1c, 0x00, 0x00, 0x00, 0x1c, 0x00, 0x00, 0x00, 0x0b, 0x00, 0x00, 0x00, 
  0x34, 0x00, 0x00, 0x00, 0x02, 0x00, 0x00, 0x00, 0xff, 0xff, 0xff, 0xff, 
  0x13, 0x00, 0x00, 0x00, 0x44, 0xfc, 0xff, 0xff, 0x1b, 0x00, 0x00, 0x00, 
  0x53, 0x74, 0x61, 0x74, 0x65, 0x66, 0x75, 0x6c, 0x50, 0x61, 0x72, 0x74, 
  0x69, 0x74, 0x69, 0x6f, 0x6e, 0x65, 0x64, 0x43, 0x61, 0x6c, 0x6c, 0x5f, 
  0x31, 0x3a, 0x30, 0x00, 0x02, 0x00, 0x00, 0x00, 0x01, 0x00, 0x00, 0x00, 
  0x13, 0x00, 0x00, 0x00, 0xb2, 0xfc, 0xff, 0xff, 0x00, 0x00, 0x00, 0x01, 
  0x14, 0x00, 0x00, 0x00, 0x1c, 0x00, 0x00, 0x00, 0x1c, 0x00, 0x00, 0x00, 
  0x0a, 0x00, 0x00, 0x00, 0x58, 0x00, 0x00, 0x00, 0x02, 0x00, 0x00, 0x00, 
  0xff, 0xff, 0xff, 0xff, 0x13, 0x00, 0x00, 0x00, 0x9c, 0xfc, 0xff, 0xff, 
  0x3c, 0x00, 0x00, 0x00, 0x73, 0x65, 0x71, 0x75, 0x65, 0x6e, 0x74, 0x69, 
  0x61, 0x6c, 0x5f, 0x31, 0x2f, 0x64, 0x65, 0x6e, 0x73, 0x65, 0x5f, 0x32, 
  0x5f, 0x31, 0x2f, 0x4d, 0x61, 0x74, 0x4d, 0x75, 0x6c, 0x3b, 0x73, 0x65, 
  0x71, 0x75, 0x65, 0x6e, 0x74, 0x69, 0x61, 0x6c, 0x5f, 0x31, 0x2f, 0x64, 
  0x65, 0x6e, 0x73, 0x65, 0x5f, 0x32, 0x5f, 0x31, 0x2f, 0x42, 0x69, 0x61, 
  0x73, 0x41, 0x64, 0x64, 0x00, 0x00, 0x00, 0x00, 0x02, 0x00, 0x00, 0x00, 
  0x01, 0x00, 0x00, 0x00, 0x13, 0x00, 0x00, 0x00, 0x2e, 0xfd, 0xff, 0xff, 
  0x00, 0x00, 0x00, 0x01, 0x14, 0x00, 0x00, 0x00, 0x1c, 0x00, 0x00, 0x00, 
  0x1c, 0x00, 0x00, 0x00, 0x09, 0x00, 0x00, 0x00, 0x74, 0x00, 0x00, 0x00, 
  0x02, 0x00, 0x00, 0x00, 0xff, 0xff, 0xff, 0xff, 0x10, 0x00, 0x00, 0x00, 
  0x18, 0xfd, 0xff, 0xff, 0x58, 0x00, 0x00, 0x00, 0x73, 0x65, 0x71, 0x75, 
  0x65, 0x6e, 0x74, 0x69, 0x61, 0x6c, 0x5f, 0x31, 0x2f, 0x64, 0x65, 0x6e, 
  0x73, 0x65, 0x5f, 0x31, 0x5f, 0x32, 0x2f, 0x4d, 0x61, 0x74, 0x4d, 0x75, 
  0x6c, 0x3b, 0x73, 0x65, 0x71, 0x75, 0x65, 0x6e, 0x74, 0x69, 0x61, 0x6c, 
  0x5f, 0x31, 0x2f, 0x64, 0x65, 0x6e, 0x73, 0x65, 0x5f, 0x31, 0x5f, 0x32, 
  0x2f, 0x52, 0x65, 0x6c, 0x75, 0x3b, 0x73, 0x65, 0x71, 0x75, 0x65, 0x6e, 
  0x74, 0x69, 0x61, 0x6c, 0x5f, 0x31, 0x2f, 0x64, 0x65, 0x6e, 0x73, 0x65, 
  0x5f, 0x31, 0x5f, 0x32, 0x2f, 0x42, 0x69, 0x61, 0x73, 0x41, 0x64, 0x64, 
  0x00, 0x00, 0x00, 0x00, 0x02, 0x00, 0x00, 0x00, 0x01, 0x00, 0x00, 0x00, 
  0x10, 0x00, 0x00, 0x00, 0xc6, 0xfd, 0xff, 0xff, 0x00, 0x00, 0x00, 0x01, 
  0x14, 0x00, 0x00, 0x00, 0x1c, 0x00, 0x00, 0x00, 0x1c, 0x00, 0x00, 0x00, 
  0x08, 0x00, 0x00, 0x00, 0x6c, 0x00, 0x00, 0x00, 0x02, 0x00, 0x00, 0x00, 
  0xff, 0xff, 0xff, 0xff, 0x20, 0x00, 0x00, 0x00, 0xb0, 0xfd, 0xff, 0xff, 
  0x52, 0x00, 0x00, 0x00, 0x73, 0x65, 0x71, 0x75, 0x65, 0x6e, 0x74, 0x69, 
  0x61, 0x6c, 0x5f, 0x31, 0x2f, 0x64, 0x65, 0x6e, 0x73, 0x65, 0x5f, 0x31, 
  0x2f, 0x4d, 0x61, 0x74, 0x4d, 0x75, 0x6c, 0x3b, 0x73, 0x65, 0x71, 0x75, 
  0x65, 0x6e, 0x74, 0x69, 0x61, 0x6c, 0x5f, 0x31, 0x2f, 0x64, 0x65, 0x6e, 
  0x73, 0x65, 0x5f, 0x31, 0x2f, 0x52, 0x65, 0x6c, 0x75, 0x3b, 0x73, 0x65, 
  0x71, 0x75, 0x65, 0x6e, 0x74, 0x69, 0x61, 0x6c, 0x5f, 0x31, 0x2f, 0x64, 
  0x65, 0x6e, 0x73, 0x65, 0x5f, 0x31, 0x2f, 0x42, 0x69, 0x61, 0x73, 0x41, 
  0x64, 0x64, 0x00, 0x00, 0x02, 0x00, 0x00, 0x00, 0x01, 0x00, 0x00, 0x00, 
  0x20, 0x00, 0x00, 0x00, 0xa6, 0xfe, 0xff, 0xff, 0x00, 0x00, 0x00, 0x01, 
  0x10, 0x00, 0x00, 0x00, 0x10, 0x00, 0x00, 0x00, 0x07, 0x00, 0x00, 0x00, 
  0x44, 0x00, 0x00, 0x00, 0x30, 0xfe, 0xff, 0xff, 0x36, 0x00, 0x00, 0x00, 
  0x73, 0x65, 0x71, 0x75, 0x65, 0x6e, 0x74, 0x69, 0x61, 0x6c, 0x5f, 0x31, 
  0x2f, 0x64, 0x65, 0x6e, 0x73, 0x65, 0x5f, 0x31, 0x2f, 0x52, 0x65, 0x6c, 
  0x75, 0x3b, 0x73, 0x65, 0x71, 0x75, 0x65, 0x6e, 0x74, 0x69, 0x61, 0x6c, 
  0x5f, 0x31, 0x2f, 0x64, 0x65, 0x6e, 0x73, 0x65, 0x5f, 0x31, 0x2f, 0x42, 
  0x69, 0x61, 0x73, 0x41, 0x64, 0x64, 0x00, 0x00, 0x01, 0x00, 0x00, 0x00, 
  0x20, 0x00, 0x00, 0x00, 0x06, 0xff, 0xff, 0xff, 0x00, 0x00, 0x00, 0x01, 
  0x10, 0x00, 0x00, 0x00, 0x10, 0x00, 0x00, 0x00, 0x06, 0x00, 0x00, 0x00, 
  0x28, 0x00, 0x00, 0x00, 0x90, 0xfe, 0xff, 0xff, 0x1b, 0x00, 0x00, 0x00, 
  0x73, 0x65, 0x71, 0x75, 0x65, 0x6e, 0x74, 0x69, 0x61, 0x6c, 0x5f, 0x31, 
  0x2f, 0x64, 0x65, 0x6e, 0x73, 0x65, 0x5f, 0x31, 0x2f, 0x4d, 0x61, 0x74, 
  0x4d, 0x75, 0x6c, 0x00, 0x02, 0x00, 0x00, 0x00, 0x20, 0x00, 0x00, 0x00, 
  0x04, 0x00, 0x00, 0x00, 0x4e, 0xff, 0xff, 0xff, 0x00, 0x00, 0x00, 0x01, 
  0x10, 0x00, 0x00, 0x00, 0x10, 0x00, 0x00, 0x00, 0x05, 0x00, 0x00, 0x00, 
  0x1c, 0x00, 0x00, 0x00, 0xd8, 0xfe, 0xff, 0xff, 0x0f, 0x00, 0x00, 0x00, 
  0x61, 0x72, 0x69, 0x74, 0x68, 0x2e, 0x63, 0x6f, 0x6e, 0x73, 0x74, 0x61, 
  0x6e, 0x74, 0x33, 0x00, 0x02, 0x00, 0x00, 0x00, 0x10, 0x00, 0x00, 0x00, 
  0x20, 0x00, 0x00, 0x00, 0x8a, 0xff, 0xff, 0xff, 0x00, 0x00, 0x00, 0x01, 
  0x10, 0x00, 0x00, 0x00, 0x10, 0x00, 0x00, 0x00, 0x04, 0x00, 0x00, 0x00, 
  0x1c, 0x00, 0x00, 0x00, 0x14, 0xff, 0xff, 0xff, 0x0f, 0x00, 0x00, 0x00, 
  0x61, 0x72, 0x69, 0x74, 0x68, 0x2e, 0x63, 0x6f, 0x6e, 0x73, 0x74, 0x61, 
  0x6e, 0x74, 0x32, 0x00, 0x02, 0x00, 0x00, 0x00, 0x13, 0x00, 0x00, 0x00, 
  0x10, 0x00, 0x00, 0x00, 0xc6, 0xff, 0xff, 0xff, 0x00, 0x00, 0x00, 0x01, 
  0x10, 0x00, 0x00, 0x00, 0x10, 0x00, 0x00, 0x00, 0x03, 0x00, 0x00, 0x00, 
  0x1c, 0x00, 0x00, 0x00, 0x50, 0xff, 0xff, 0xff, 0x0f, 0x00, 0x00, 0x00, 
  0x61, 0x72, 0x69, 0x74, 0x68, 0x2e, 0x63, 0x6f, 0x6e, 0x73, 0x74, 0x61, 
  0x6e, 0x74, 0x31, 0x00, 0x01, 0x00, 0x00, 0x00, 0x13, 0x00, 0x00, 0x00, 
  0x00, 0x00, 0x16, 0x00, 0x18, 0x00, 0x14, 0x00, 0x00, 0x00, 0x10, 0x00, 
  0x0c, 0x00, 0x08, 0x00, 0x00, 0x00, 0x00, 0x00, 0x00, 0x00, 0x07, 0x00, 
  0x16, 0x00, 0x00, 0x00, 0x00, 0x00, 0x00, 0x01, 0x10, 0x00, 0x00, 0x00, 
  0x10, 0x00, 0x00, 0x00, 0x02, 0x00, 0x00, 0x00, 0x1c, 0x00, 0x00, 0x00, 
  0xa0, 0xff, 0xff, 0xff, 0x0e, 0x00, 0x00, 0x00, 0x61, 0x72, 0x69, 0x74, 
  0x68, 0x2e, 0x63, 0x6f, 0x6e, 0x73, 0x74, 0x61, 0x6e, 0x74, 0x00, 0x00, 
  0x01, 0x00, 0x00, 0x00, 0x10, 0x00, 0x00, 0x00, 0x00, 0x00, 0x16, 0x00, 
  0x1c, 0x00, 0x18, 0x00, 0x00, 0x00, 0x14, 0x00, 0x10, 0x00, 0x0c, 0x00, 
  0x00, 0x00, 0x00, 0x00, 0x08, 0x00, 0x07, 0x00, 0x16, 0x00, 0x00, 0x00, 
  0x00, 0x00, 0x00, 0x01, 0x14, 0x00, 0x00, 0x00, 0x20, 0x00, 0x00, 0x00, 
  0x20, 0x00, 0x00, 0x00, 0x01, 0x00, 0x00, 0x00, 0x3c, 0x00, 0x00, 0x00, 
  0x02, 0x00, 0x00, 0x00, 0xff, 0xff, 0xff, 0xff, 0x04, 0x00, 0x00, 0x00, 
  0x04, 0x00, 0x04, 0x00, 0x04, 0x00, 0x00, 0x00, 0x1d, 0x00, 0x00, 0x00, 
  0x73, 0x65, 0x72, 0x76, 0x69, 0x6e, 0x67, 0x5f, 0x64, 0x65, 0x66, 0x61, 
  0x75, 0x6c, 0x74, 0x5f, 0x69, 0x6e, 0x70, 0x75, 0x74, 0x5f, 0x6c, 0x61, 
  0x79, 0x65, 0x72, 0x3a, 0x30, 0x00, 0x00, 0x00, 0x02, 0x00, 0x00, 0x00, 
  0x01, 0x00, 0x00, 0x00, 0x04, 0x00, 0x00, 0x00, 0x02, 0x00, 0x00, 0x00, 
  0x20, 0x00, 0x00, 0x00, 0x04, 0x00, 0x00, 0x00, 0xf4, 0xff, 0xff, 0xff, 
  0x19, 0x00, 0x00, 0x00, 0x00, 0x00, 0x00, 0x19, 0x0c, 0x00, 0x0c, 0x00, 
  0x0b, 0x00, 0x00, 0x00, 0x00, 0x00, 0x04, 0x00, 0x0c, 0x00, 0x00, 0x00, 
  0x09, 0x00, 0x00, 0x00, 0x00, 0x00, 0x00, 0x09, 
};
const unsigned int model_medbox_tflite_len = 6140;

#endif // MODEL_MEDBOX_H
